unsigned char wifi_model_tflite[] = {0x1c,0x0,0x0,0x0,0x54,0x46,0x4c,0x33,0x14,0x0,0x20,0x0,0x1c,0x0,0x18,0x0,0x14,0x0,0x10,0x0,0xc,0x0,0x0,0x0,0x8,0x0,0x4,0x0,0x14,0x0,0x0,0x0,0x1c,0x0,0x0,0x0,0x98,0x0,0x0,0x0,0xf0,0x0,0x0,0x0,0xf4,0x2,0x0,0x0,0x4,0x3,0x0,0x0,0x64,0x7,0x0,0x0,0x3,0x0,0x0,0x0,0x1,0x0,0x0,0x0,0x10,0x0,0x0,0x0,0x0,0x0,0xa,0x0,0x10,0x0,0xc,0x0,0x8,0x0,0x4,0x0,0xa,0x0,0x0,0x0,0xc,0x0,0x0,0x0,0x1c,0x0,0x0,0x0,0x3c,0x0,0x0,0x0,0xf,0x0,0x0,0x0,0x73,0x65,0x72,0x76,0x69,0x6e,0x67,0x5f,0x64,0x65,0x66,0x61,0x75,0x6c,0x74,0x0,0x1,0x0,0x0,0x0,0x4,0x0,0x0,0x0,0x90,0xff,0xff,0xff,0x7,0x0,0x0,0x0,0x4,0x0,0x0,0x0,0x8,0x0,0x0,0x0,0x6f,0x75,0x74,0x70,0x75,0x74,0x5f,0x30,0x0,0x0,0x0,0x0,0x1,0x0,0x0,0x0,0x4,0x0,0x0,0x0,0xf6,0xfc,0xff,0xff,0x4,0x0,0x0,0x0,0xc,0x0,0x0,0x0,0x6b,0x65,0x72,0x61,0x73,0x5f,0x74,0x65,0x6e,0x73,0x6f,0x72,0x0,0x0,0x0,0x0,0x2,0x0,0x0,0x0,0x34,0x0,0x0,0x0,0x4,0x0,0x0,0x0,0xdc,0xff,0xff,0xff,0xa,0x0,0x0,0x0,0x4,0x0,0x0,0x0,0x13,0x0,0x0,0x0,0x43,0x4f,0x4e,0x56,0x45,0x52,0x53,0x49,0x4f,0x4e,0x5f,0x4d,0x45,0x54,0x41,0x44,0x41,0x54,0x41,0x0,0x8,0x0,0xc,0x0,0x8,0x0,0x4,0x0,0x8,0x0,0x0,0x0,0x9,0x0,0x0,0x0,0x4,0x0,0x0,0x0,0x13,0x0,0x0,0x0,0x6d,0x69,0x6e,0x5f,0x72,0x75,0x6e,0x74,0x69,0x6d,0x65,0x5f,0x76,0x65,0x72,0x73,0x69,0x6f,0x6e,0x0,0xb,0x0,0x0,0x0,0x0,0x2,0x0,0x0,0xf8,0x1,0x0,0x0,0xdc,0x1,0x0,0x0,0x6c,0x1,0x0,0x0,0xdc,0x0,0x0,0x0,0xac,0x0,0x0,0x0,0xa4,0x0,0x0,0x0,0x9c,0x0,0x0,0x0,0x94,0x0,0x0,0x0,0x74,0x0,0x0,0x0,0x4,0x0,0x0,0x0,0x9e,0xfd,0xff,0xff,0x4,0x0,0x0,0x0,0x60,0x0,0x0,0x0,0xc,0x0,0x0,0x0,0x8,0x0,0xe,0x0,0x8,0x0,0x4,0x0,0x8,0x0,0x0,0x0,0x10,0x0,0x0,0x0,0x28,0x0,0x0,0x0,0x0,0x0,0x6,0x0,0x8,0x0,0x4,0x0,0x6,0x0,0x0,0x0,0x4,0x0,0x0,0x0,0x1,0x0,0x0,0x0,0xea,0x3,0x0,0x0,0xc,0x0,0x18,0x0,0x14,0x0,0x10,0x0,0xc,0x0,0x4,0x0,0xc,0x0,0x0,0x0,0x53,0xe1,0x9b,0x23,0x18,0x58,0x57,0xb7,0x2,0x0,0x0,0x0,0x2,0x0,0x0,0x0,0x4,0x0,0x0,0x0,0x6,0x0,0x0,0x0,0x32,0x2e,0x32,0x30,0x2e,0x30,0x0,0x0,0xa,0xfe,0xff,0xff,0x4,0x0,0x0,0x0,0x10,0x0,0x0,0x0,0x31,0x2e,0x35,0x2e,0x30,0x0,0x0,0x0,0x0,0x0,0x0,0x0,0x0,0x0,0x0,0x0,0x70,0xfa,0xff,0xff,0x74,0xfa,0xff,0xff,0x78,0xfa,0xff,0xff,0x32,0xfe,0xff,0xff,0x4,0x0,0x0,0x0,0x20,0x0,0x0,0x0,0x4d,0xff,0x8f,0x3d,0x5c,0x0,0x60,0xbd,0x4a,0x5b,0x9f,0x3d,0x3e,0x3b,0x5f,0xbd,0x50,0xe2,0x21,0xbd,0x37,0x9,0x80,0x3d,0xc0,0xa,0xf6,0xbc,0xea,0x4e,0xf0,0x3b,0x5e,0xfe,0xff,0xff,0x4,0x0,0x0,0x0,0x80,0x0,0x0,0x0,0xb7,0x67,0x1f,0xbf,0x76,0x40,0x16,0x3e,0x8a,0x13,0x87,0x3e,0x55,0x3e,0xb8,0xbe,0x7b,0x7,0x8,0x3e,0xc8,0x2,0xa0,0xbe,0x3a,0x35,0xdd,0x3e,0xa5,0x7,0x1f,0xbf,0xf9,0x3c,0x15,0xbf,0x94,0xbc,0x5,0xbe,0xca,0x25,0x43,0xbf,0xf1,0xc5,0x32,0xbf,0xf,0x8,0x5,0xbf,0x72,0x2d,0x19,0x3d,0xa8,0x56,0x71,0xbe,0x7b,0x9c,0x7d,0x3e,0x3c,0x30,0x1e,0xbf,0xd7,0x6d,0xf1,0x3d,0x24,0x6c,0x13,0xbf,0xc4,0xe7,0x2f,0xbe,0x65,0xed,0x1a,0x3e,0xe6,0xcf,0x34,0x3f,0x68,0x27,0xa2,0x3d,0x9c,0x87,0x3c,0x3f,0xbd,0x81,0xb6,0xbd,0xf5,0xc2,0xcf,0x3e,0x61,0xef,0x19,0xbf,0x67,0xd8,0x9f,0xbe,0xef,0xa8,0x7,0xbf,0xf0,0xbc,0x55,0x3e,0x90,0xfa,0x19,0x3f,0x9d,0x53,0xa,0xbf,0xea,0xfe,0xff,0xff,0x4,0x0,0x0,0x0,0x60,0x0,0x0,0x0,0xb4,0x27,0x9a,0x3e,0xd9,0x54,0x87,0xbe,0x29,0x21,0xe1,0xbe,0x14,0x9e,0xd2,0x3e,0xa6,0x31,0xe7,0x3d,0x33,0x8,0x3d,0x3f,0xb7,0x0,0x99,0xbe,0xc0,0xb7,0x12,0xbf,0x3a,0xa6,0x95,0x3d,0xd1,0x34,0x71,0x3e,0xfd,0xd9,0xbd,0xbd,0x18,0x40,0x1f,0x3e,0xd0,0xe8,0x4e,0xbf,0xb,0x13,0x1b,0xbf,0xa0,0x4d,0x15,0x3f,0x96,0x26,0x62,0x3e,0x2e,0x93,0x20,0x3f,0x2b,0x14,0xa6,0xbe,0xcc,0x7,0x20,0x3f,0x5d,0x77,0x17,0xbf,0xb5,0x69,0xaa,0xbe,0x3a,0x63,0xe,0x3e,0x3,0xa7,0x1f,0x3e,0x74,0xa2,0xf7,0x3e,0x56,0xff,0xff,0xff,0x4,0x0,0x0,0x0,0xc,0x0,0x0,0x0,0xf2,0x49,0x49,0x3d,0xbf,0xe6,0xe8,0xbc,0x9a,0x16,0x74,0xbc,0xb8,0xfb,0xff,0xff,0xbc,0xfb,0xff,0xff,0xf,0x0,0x0,0x0,0x4d,0x4c,0x49,0x52,0x20,0x43,0x6f,0x6e,0x76,0x65,0x72,0x74,0x65,0x64,0x2e,0x0,0x1,0x0,0x0,0x0,0x14,0x0,0x0,0x0,0x0,0x0,0xe,0x0,0x18,0x0,0x14,0x0,0x10,0x0,0xc,0x0,0x8,0x0,0x4,0x0,0xe,0x0,0x0,0x0,0x14,0x0,0x0,0x0,0x1c,0x0,0x0,0x0,0xfc,0x0,0x0,0x0,0x0,0x1,0x0,0x0,0x4,0x1,0x0,0x0,0x4,0x0,0x0,0x0,0x6d,0x61,0x69,0x6e,0x0,0x0,0x0,0x0,0x3,0x0,0x0,0x0,0xa4,0x0,0x0,0x0,0x60,0x0,0x0,0x0,0x14,0x0,0x0,0x0,0x0,0x0,0xe,0x0,0x1a,0x0,0x14,0x0,0x10,0x0,0xc,0x0,0xb,0x0,0x4,0x0,0xe,0x0,0x0,0x0,0x1c,0x0,0x0,0x0,0x0,0x0,0x0,0x9,0x1c,0x0,0x0,0x0,0x20,0x0,0x0,0x0,0x1,0x0,0x0,0x0,0x0,0x0,0x6,0x0,0x8,0x0,0x4,0x0,0x6,0x0,0x0,0x0,0x0,0x0,0x80,0x3f,0x1,0x0,0x0,0x0,0x7,0x0,0x0,0x0,0x1,0x0,0x0,0x0,0x6,0x0,0x0,0x0,0x0,0x0,0xe,0x0,0x14,0x0,0x0,0x0,0x10,0x0,0xc,0x0,0xb,0x0,0x4,0x0,0xe,0x0,0x0,0x0,0x10,0x0,0x0,0x0,0x0,0x0,0x0,0x8,0xc,0x0,0x0,0x0,0x10,0x0,0x0,0x0,0x8c,0xfc,0xff,0xff,0x1,0x0,0x0,0x0,0x6,0x0,0x0,0x0,0x3,0x0,0x0,0x0,0x5,0x0,0x0,0x0,0x2,0x0,0x0,0x0,0x1,0x0,0x0,0x0,0x0,0x0,0xe,0x0,0x16,0x0,0x0,0x0,0x10,0x0,0xc,0x0,0xb,0x0,0x4,0x0,0xe,0x0,0x0,0x0,0x18,0x0,0x0,0x0,0x0,0x0,0x0,0x8,0x18,0x0,0x0,0x0,0x1c,0x0,0x0,0x0,0x0,0x0,0x6,0x0,0x8,0x0,0x7,0x0,0x6,0x0,0x0,0x0,0x0,0x0,0x0,0x1,0x1,0x0,0x0,0x0,0x5,0x0,0x0,0x0,0x3,0x0,0x0,0x0,0x0,0x0,0x0,0x0,0x3,0x0,0x0,0x0,0x4,0x0,0x0,0x0,0x1,0x0,0x0,0x0,0x7,0x0,0x0,0x0,0x1,0x0,0x0,0x0,0x0,0x0,0x0,0x0,0x8,0x0,0x0,0x0,0xd0,0x2,0x0,0x0,0x7c,0x2,0x0,0x0,0x24,0x2,0x0,0x0,0xd8,0x1,0x0,0x0,0x74,0x1,0x0,0x0,0xe0,0x0,0x0,0x0,0x60,0x0,0x0,0x0,0x4,0x0,0x0,0x0,0x66,0xfd,0xff,0xff,0x0,0x0,0x0,0x1,0x14,0x0,0x0,0x0,0x1c,0x0,0x0,0x0,0x1c,0x0,0x0,0x0,0x8,0x0,0x0,0x0,0x34,0x0,0x0,0x0,0x2,0x0,0x0,0x0,0xff,0xff,0xff,0xff,0x3,0x0,0x0,0x0,0x50,0xfd,0xff,0xff,0x1b,0x0,0x0,0x0,0x53,0x74,0x61,0x74,0x65,0x66,0x75,0x6c,0x50,0x61,0x72,0x74,0x69,0x74,0x69,0x6f,0x6e,0x65,0x64,0x43,0x61,0x6c,0x6c,0x5f,0x31,0x3a,0x30,0x0,0x2,0x0,0x0,0x0,0x1,0x0,0x0,0x0,0x3,0x0,0x0,0x0,0xbe,0xfd,0xff,0xff,0x0,0x0,0x0,0x1,0x14,0x0,0x0,0x0,0x1c,0x0,0x0,0x0,0x1c,0x0,0x0,0x0,0x7,0x0,0x0,0x0,0x58,0x0,0x0,0x0,0x2,0x0,0x0,0x0,0xff,0xff,0xff,0xff,0x3,0x0,0x0,0x0,0xa8,0xfd,0xff,0xff,0x3c,0x0,0x0,0x0,0x73,0x65,0x71,0x75,0x65,0x6e,0x74,0x69,0x61,0x6c,0x5f,0x31,0x2f,0x64,0x65,0x6e,0x73,0x65,0x5f,0x31,0x5f,0x32,0x2f,0x4d,0x61,0x74,0x4d,0x75,0x6c,0x3b,0x73,0x65,0x71,0x75,0x65,0x6e,0x74,0x69,0x61,0x6c,0x5f,0x31,0x2f,0x64,0x65,0x6e,0x73,0x65,0x5f,0x31,0x5f,0x32,0x2f,0x42,0x69,0x61,0x73,0x41,0x64,0x64,0x0,0x0,0x0,0x0,0x2,0x0,0x0,0x0,0x1,0x0,0x0,0x0,0x3,0x0,0x0,0x0,0x3a,0xfe,0xff,0xff,0x0,0x0,0x0,0x1,0x14,0x0,0x0,0x0,0x1c,0x0,0x0,0x0,0x1c,0x0,0x0,0x0,0x6,0x0,0x0,0x0,0x6c,0x0,0x0,0x0,0x2,0x0,0x0,0x0,0xff,0xff,0xff,0xff,0x8,0x0,0x0,0x0,0x24,0xfe,0xff,0xff,0x52,0x0,0x0,0x0,0x73,0x65,0x71,0x75,0x65,0x6e,0x74,0x69,0x61,0x6c,0x5f,0x31,0x2f,0x64,0x65,0x6e,0x73,0x65,0x5f,0x31,0x2f,0x4d,0x61,0x74,0x4d,0x75,0x6c,0x3b,0x73,0x65,0x71,0x75,0x65,0x6e,0x74,0x69,0x61,0x6c,0x5f,0x31,0x2f,0x64,0x65,0x6e,0x73,0x65,0x5f,0x31,0x2f,0x52,0x65,0x6c,0x75,0x3b,0x73,0x65,0x71,0x75,0x65,0x6e,0x74,0x69,0x61,0x6c,0x5f,0x31,0x2f,0x64,0x65,0x6e,0x73,0x65,0x5f,0x31,0x2f,0x42,0x69,0x61,0x73,0x41,0x64,0x64,0x0,0x0,0x2,0x0,0x0,0x0,0x1,0x0,0x0,0x0,0x8,0x0,0x0,0x0,0x1a,0xff,0xff,0xff,0x0,0x0,0x0,0x1,0x10,0x0,0x0,0x0,0x10,0x0,0x0,0x0,0x5,0x0,0x0,0x0,0x44,0x0,0x0,0x0,0xa4,0xfe,0xff,0xff,0x36,0x0,0x0,0x0,0x73,0x65,0x71,0x75,0x65,0x6e,0x74,0x69,0x61,0x6c,0x5f,0x31,0x2f,0x64,0x65,0x6e,0x73,0x65,0x5f,0x31,0x2f,0x52,0x65,0x6c,0x75,0x3b,0x73,0x65,0x71,0x75,0x65,0x6e,0x74,0x69,0x61,0x6c,0x5f,0x31,0x2f,0x64,0x65,0x6e,0x73,0x65,0x5f,0x31,0x2f,0x42,0x69,0x61,0x73,0x41,0x64,0x64,0x0,0x0,0x1,0x0,0x0,0x0,0x8,0x0,0x0,0x0,0x7a,0xff,0xff,0xff,0x0,0x0,0x0,0x1,0x10,0x0,0x0,0x0,0x10,0x0,0x0,0x0,0x4,0x0,0x0,0x0,0x28,0x0,0x0,0x0,0x4,0xff,0xff,0xff,0x1b,0x0,0x0,0x0,0x73,0x65,0x71,0x75,0x65,0x6e,0x74,0x69,0x61,0x6c,0x5f,0x31,0x2f,0x64,0x65,0x6e,0x73,0x65,0x5f,0x31,0x2f,0x4d,0x61,0x74,0x4d,0x75,0x6c,0x0,0x2,0x0,0x0,0x0,0x8,0x0,0x0,0x0,0x4,0x0,0x0,0x0,0xc2,0xff,0xff,0xff,0x0,0x0,0x0,0x1,0x10,0x0,0x0,0x0,0x10,0x0,0x0,0x0,0x3,0x0,0x0,0x0,0x1c,0x0,0x0,0x0,0x4c,0xff,0xff,0xff,0xf,0x0,0x0,0x0,0x61,0x72,0x69,0x74,0x68,0x2e,0x63,0x6f,0x6e,0x73,0x74,0x61,0x6e,0x74,0x31,0x0,0x2,0x0,0x0,0x0,0x3,0x0,0x0,0x0,0x8,0x0,0x0,0x0,0x0,0x0,0x16,0x0,0x18,0x0,0x14,0x0,0x0,0x0,0x10,0x0,0xc,0x0,0x8,0x0,0x0,0x0,0x0,0x0,0x0,0x0,0x7,0x0,0x16,0x0,0x0,0x0,0x0,0x0,0x0,0x1,0x10,0x0,0x0,0x0,0x10,0x0,0x0,0x0,0x2,0x0,0x0,0x0,0x1c,0x0,0x0,0x0,0xa0,0xff,0xff,0xff,0xe,0x0,0x0,0x0,0x61,0x72,0x69,0x74,0x68,0x2e,0x63,0x6f,0x6e,0x73,0x74,0x61,0x6e,0x74,0x0,0x0,0x1,0x0,0x0,0x0,0x3,0x0,0x0,0x0,0x0,0x0,0x16,0x0,0x1c,0x0,0x18,0x0,0x0,0x0,0x14,0x0,0x10,0x0,0xc,0x0,0x0,0x0,0x0,0x0,0x8,0x0,0x7,0x0,0x16,0x0,0x0,0x0,0x0,0x0,0x0,0x1,0x14,0x0,0x0,0x0,0x20,0x0,0x0,0x0,0x20,0x0,0x0,0x0,0x1,0x0,0x0,0x0,0x3c,0x0,0x0,0x0,0x2,0x0,0x0,0x0,0xff,0xff,0xff,0xff,0x4,0x0,0x0,0x0,0x4,0x0,0x4,0x0,0x4,0x0,0x0,0x0,0x1e,0x0,0x0,0x0,0x73,0x65,0x72,0x76,0x69,0x6e,0x67,0x5f,0x64,0x65,0x66,0x61,0x75,0x6c,0x74,0x5f,0x6b,0x65,0x72,0x61,0x73,0x5f,0x74,0x65,0x6e,0x73,0x6f,0x72,0x3a,0x30,0x0,0x0,0x2,0x0,0x0,0x0,0x1,0x0,0x0,0x0,0x4,0x0,0x0,0x0,0x2,0x0,0x0,0x0,0x20,0x0,0x0,0x0,0x4,0x0,0x0,0x0,0xf4,0xff,0xff,0xff,0x19,0x0,0x0,0x0,0x0,0x0,0x0,0x19,0xc,0x0,0xc,0x0,0xb,0x0,0x0,0x0,0x0,0x0,0x4,0x0,0xc,0x0,0x0,0x0,0x9,0x0,0x0,0x0,0x0,0x0,0x0,0x9};
unsigned int wifi_model_tflite_len = 1992;